{
  "<PAD>": 0,
  "E1": 1,
  "E2": 2,
  "E3": 3,
  "E4": 4,
  "E5": 5,
  "E6": 6,
  "E7": 7,
  "E8": 8,
  "E9": 9,
  "E10": 10,
  "E11": 11,
  "E12": 12,
  "E13": 13,
  "E14": 14,
  "E15": 15,
  "E16": 16,
  "E17": 17,
  "E18": 18,
  "E19": 19,
  "E20": 20,
  "E21": 21,
  "E22": 22,
  "E23": 23,
  "E24": 24,
  "E25": 25,
  "E26": 26,
  "E27": 27,
  "E28": 28,
  "E29": 29,
  "E30": 30,
  "E31": 31,
  "E32": 32,
  "E33": 33,
  "E34": 34,
  "E35": 35,
  "E36": 36,
  "E37": 37,
  "E38": 38,
  "E39": 39,
  "E40": 40,
  "E41": 41,
  "E42": 42,
  "E43": 43,
  "E44": 44,
  "E45": 45,
  "E46": 46,
  "E47": 47,
  "E48": 48,
  "E49": 49,
  "E50": 50,
  "E51": 51,
  "E52": 52,
  "E53": 53,
  "E54": 54,
  "E55": 55,
  "E56": 56,
  "E57": 57,
  "E58": 58,
  "E59": 59,
  "E60": 60,
  "E61": 61,
  "E62": 62,
  "E63": 63,
  "E64": 64,
  "E65": 65,
  "E66": 66,
  "E67": 67,
  "E68": 68,
  "E69": 69,
  "E70": 70,
  "E71": 71,
  "E72": 72,
  "E73": 73,
  "E74": 74,
  "E75": 75,
  "E76": 76,
  "E77": 77,
  "E78": 78,
  "E79": 79,
  "E80": 80,
  "E81": 81,
  "E82": 82,
  "E83": 83,
  "E84": 84,
  "E85": 85,
  "E86": 86,
  "E87": 87,
  "E88": 88,
  "E89": 89,
  "E90": 90,
  "E91": 91,
  "E92": 92,
  "E93": 93,
  "E94": 94,
  "E95": 95,
  "E96": 96,
  "E97": 97,
  "E98": 98,
  "E99": 99,
  "E100": 100,
  "E101": 101,
  "E102": 102,
  "E103": 103,
  "E104": 104,
  "E105": 105,
  "E106": 106,
  "E107": 107,
  "E108": 108,
  "E109": 109,
  "E110": 110,
  "E111": 111,
  "E112": 112,
  "E113": 113,
  "E114": 114,
  "E115": 115,
  "E116": 116,
  "E117": 117,
  "E118": 118,
  "E119": 119,
  "E120": 120,
  "E121": 121,
  "E122": 122,
  "E123": 123,
  "E124": 124,
  "E125": 125,
  "E126": 126,
  "E127": 127,
  "E128": 128,
  "E129": 129,
  "E130": 130,
  "E131": 131,
  "E132": 132,
  "E133": 133,
  "E134": 134,
  "E135": 135,
  "E136": 136,
  "E137": 137,
  "E138": 138,
  "E139": 139,
  "E140": 140,
  "E141": 141,
  "E142": 142,
  "E143": 143,
  "E144": 144,
  "E145": 145,
  "E146": 146,
  "E147": 147,
  "E148": 148,
  "E149": 149,
  "E150": 150,
  "E151": 151,
  "E152": 152,
  "E153": 153,
  "E154": 154,
  "E155": 155,
  "E156": 156,
  "E157": 157,
  "E158": 158,
  "E159": 159,
  "E160": 160,
  "E161": 161,
  "E162": 162,
  "E163": 163,
  "E164": 164,
  "E165": 165,
  "E166": 166,
  "E167": 167,
  "E168": 168,
  "E169": 169,
  "E170": 170,
  "E171": 171,
  "E172": 172,
  "E173": 173,
  "E174": 174,
  "E175": 175,
  "E176": 176,
  "E177": 177,
  "E178": 178,
  "E179": 179,
  "E180": 180,
  "E181": 181,
  "E182": 182,
  "E183": 183,
  "E184": 184,
  "E185": 185,
  "E186": 186,
  "E187": 187,
  "E188": 188,
  "E189": 189,
  "E190": 190,
  "E191": 191,
  "E192": 192,
  "E193": 193,
  "E194": 194,
  "E195": 195,
  "E196": 196,
  "E197": 197,
  "E198": 198,
  "E199": 199,
  "E200": 200,
  "E201": 201,
  "E202": 202,
  "E203": 203,
  "E204": 204,
  "E205": 205,
  "E206": 206,
  "E207": 207,
  "E208": 208,
  "E209": 209,
  "E210": 210,
  "E211": 211,
  "E212": 212,
  "E213": 213,
  "E214": 214,
  "E215": 215,
  "E216": 216,
  "E217": 217,
  "E218": 218,
  "E219": 219,
  "E220": 220,
  "E221": 221,
  "E222": 222,
  "E223": 223,
  "E224": 224,
  "E225": 225,
  "E226": 226,
  "E227": 227,
  "E228": 228,
  "E229": 229,
  "E230": 230,
  "E231": 231,
  "E232": 232,
  "E233": 233,
  "E234": 234,
  "E235": 235,
  "E236": 236,
  "E237": 237,
  "E238": 238,
  "E239": 239,
  "E240": 240,
  "E241": 241,
  "E242": 242,
  "E243": 243,
  "E244": 244,
  "E245": 245,
  "E246": 246,
  "E247": 247,
  "E248": 248,
  "E249": 249,
  "E250": 250,
  "E251": 251,
  "E252": 252,
  "E253": 253,
  "E254": 254,
  "E255": 255,
  "E256": 256,
  "E257": 257,
  "E258": 258,
  "E259": 259,
  "E260": 260,
  "E261": 261,
  "E262": 262,
  "E263": 263,
  "E264": 264,
  "E265": 265,
  "E266": 266,
  "E267": 267,
  "E268": 268,
  "E269": 269,
  "E270": 270,
  "E271": 271,
  "E272": 272,
  "E273": 273,
  "E274": 274,
  "E275": 275,
  "E276": 276,
  "E277": 277,
  "E278": 278,
  "E279": 279,
  "E280": 280,
  "E281": 281,
  "E282": 282,
  "E283": 283,
  "E284": 284,
  "E285": 285,
  "E286": 286,
  "E287": 287,
  "E288": 288,
  "E289": 289,
  "E290": 290,
  "E291": 291,
  "E292": 292,
  "E293": 293,
  "E294": 294,
  "E295": 295,
  "E296": 296,
  "E297": 297,
  "E298": 298,
  "E299": 299,
  "E300": 300,
  "E301": 301,
  "E302": 302,
  "E303": 303,
  "E304": 304,
  "E305": 305,
  "E306": 306,
  "E307": 307,
  "E308": 308,
  "E309": 309,
  "E310": 310,
  "E311": 311,
  "E312": 312,
  "E313": 313,
  "E314": 314,
  "E315": 315,
  "E316": 316,
  "E317": 317,
  "E318": 318,
  "E319": 319,
  "E320": 320,
  "E321": 321,
  "E322": 322,
  "E323": 323,
  "E324": 324,
  "E325": 325,
  "E326": 326,
  "E327": 327,
  "E328": 328,
  "E329": 329,
  "E330": 330,
  "E331": 331,
  "E332": 332,
  "E333": 333,
  "E334": 334,
  "E335": 335,
  "E336": 336,
  "E337": 337,
  "E338": 338,
  "E339": 339,
  "E340": 340,
  "E341": 341,
  "E342": 342,
  "E343": 343,
  "E344": 344,
  "E345": 345,
  "E346": 346,
  "E347": 347,
  "E348": 348,
  "E349": 349,
  "E350": 350,
  "E351": 351,
  "E352": 352,
  "E353": 353,
  "E354": 354,
  "E355": 355,
  "E356": 356,
  "E357": 357,
  "E358": 358,
  "E359": 359,
  "E360": 360,
  "E361": 361,
  "E362": 362,
  "E363": 363,
  "E364": 364,
  "E365": 365,
  "E366": 366,
  "E367": 367,
  "E368": 368,
  "E369": 369,
  "E370": 370,
  "E371": 371,
  "E372": 372,
  "E373": 373,
  "E374": 374,
  "E375": 375,
  "E376": 376,
  "E377": 377,
  "E378": 378,
  "E379": 379,
  "E380": 380,
  "E381": 381,
  "E382": 382,
  "E383": 383,
  "E384": 384,
  "E385": 385,
  "E386": 386,
  "E387": 387,
  "E388": 388,
  "E389": 389,
  "E390": 390,
  "E391": 391,
  "E392": 392,
  "E393": 393,
  "E394": 394,
  "E395": 395,
  "E396": 396,
  "E397": 397,
  "E398": 398,
  "E399": 399,
  "E400": 400,
  "E401": 401,
  "E402": 402,
  "E403": 403,
  "E404": 404,
  "E405": 405,
  "E406": 406,
  "E407": 407,
  "E408": 408,
  "E409": 409,
  "E410": 410,
  "E411": 411,
  "E412": 412,
  "E413": 413,
  "E414": 414,
  "E415": 415,
  "E416": 416,
  "E417": 417,
  "E418": 418,
  "E419": 419,
  "E420": 420,
  "E421": 421,
  "E422": 422,
  "E423": 423,
  "E424": 424,
  "E425": 425,
  "E426": 426,
  "E427": 427,
  "E428": 428,
  "E429": 429,
  "E430": 430,
  "E431": 431,
  "E432": 432,
  "E433": 433,
  "E434": 434,
  "E435": 435,
  "E436": 436,
  "E437": 437,
  "E438": 438,
  "E439": 439,
  "E440": 440,
  "E441": 441,
  "E442": 442,
  "E443": 443,
  "E444": 444,
  "E445": 445,
  "E446": 446,
  "E447": 447,
  "E448": 448,
  "E449": 449,
  "E450": 450,
  "E451": 451,
  "E452": 452,
  "E453": 453,
  "E454": 454,
  "E455": 455,
  "E456": 456,
  "E457": 457,
  "E458": 458,
  "E459": 459,
  "E460": 460,
  "E461": 461,
  "E462": 462,
  "E463": 463,
  "E464": 464,
  "E465": 465,
  "E466": 466,
  "E467": 467,
  "E468": 468,
  "E469": 469,
  "E470": 470,
  "E471": 471,
  "E472": 472,
  "E473": 473,
  "E474": 474,
  "E475": 475,
  "E476": 476,
  "E477": 477,
  "E478": 478,
  "E479": 479,
  "E480": 480,
  "E481": 481,
  "E482": 482,
  "E483": 483,
  "E484": 484,
  "E485": 485,
  "E486": 486,
  "E487": 487,
  "E488": 488,
  "E489": 489,
  "E490": 490,
  "E491": 491,
  "E492": 492,
  "E493": 493,
  "E494": 494,
  "E495": 495,
  "E496": 496,
  "E497": 497,
  "E498": 498,
  "E499": 499,
  "E500": 500,
  "E501": 501,
  "E502": 502,
  "E503": 503,
  "E504": 504,
  "E505": 505,
  "E506": 506,
  "E507": 507,
  "E508": 508,
  "E509": 509,
  "E510": 510,
  "E511": 511,
  "E512": 512,
  "E513": 513,
  "E514": 514,
  "E515": 515,
  "E516": 516,
  "E517": 517,
  "E518": 518,
  "E519": 519,
  "E520": 520,
  "E521": 521,
  "E522": 522,
  "E523": 523,
  "E524": 524,
  "E525": 525,
  "E526": 526,
  "E527": 527,
  "E528": 528,
  "E529": 529,
  "E530": 530,
  "E531": 531,
  "E532": 532,
  "E533": 533,
  "E534": 534,
  "E535": 535,
  "E536": 536,
  "E537": 537,
  "E538": 538,
  "E539": 539,
  "E540": 540,
  "E541": 541,
  "E542": 542,
  "E543": 543,
  "E544": 544,
  "E545": 545,
  "E546": 546,
  "E547": 547,
  "E548": 548,
  "E549": 549,
  "E550": 550,
  "E551": 551,
  "E552": 552,
  "E553": 553,
  "E554": 554,
  "E555": 555,
  "E556": 556,
  "E557": 557,
  "E558": 558,
  "E559": 559,
  "E560": 560,
  "E561": 561,
  "E562": 562,
  "E563": 563,
  "E564": 564,
  "E565": 565,
  "E566": 566,
  "E567": 567,
  "E568": 568,
  "E569": 569,
  "E570": 570,
  "E571": 571,
  "E572": 572,
  "E573": 573,
  "E574": 574,
  "E575": 575,
  "E576": 576,
  "E577": 577,
  "E578": 578,
  "E579": 579,
  "E580": 580,
  "E581": 581,
  "E582": 582,
  "E583": 583,
  "E584": 584,
  "E585": 585,
  "E586": 586,
  "E587": 587,
  "E588": 588,
  "E589": 589,
  "E590": 590,
  "E591": 591,
  "E592": 592,
  "E593": 593,
  "E594": 594,
  "E595": 595,
  "E596": 596,
  "E597": 597,
  "E598": 598,
  "E599": 599,
  "E600": 600,
  "E601": 601,
  "E602": 602,
  "E603": 603,
  "E604": 604,
  "E605": 605,
  "E606": 606,
  "E607": 607,
  "E608": 608,
  "E609": 609,
  "E610": 610,
  "E611": 611,
  "E612": 612,
  "E613": 613,
  "E614": 614,
  "E615": 615,
  "E616": 616,
  "E617": 617,
  "E618": 618,
  "E619": 619,
  "E620": 620,
  "E621": 621,
  "E622": 622,
  "E623": 623,
  "E624": 624,
  "E625": 625,
  "E626": 626,
  "E627": 627,
  "E628": 628,
  "E629": 629,
  "E630": 630,
  "E631": 631,
  "E632": 632,
  "E633": 633,
  "E634": 634,
  "E635": 635,
  "E636": 636,
  "E637": 637,
  "E638": 638,
  "E639": 639,
  "E640": 640,
  "E641": 641,
  "E642": 642,
  "E643": 643,
  "E644": 644,
  "E645": 645,
  "E646": 646,
  "E647": 647,
  "E648": 648,
  "E649": 649,
  "E650": 650,
  "E651": 651,
  "E652": 652,
  "E653": 653,
  "E654": 654,
  "E655": 655,
  "E656": 656,
  "E657": 657,
  "E658": 658,
  "E659": 659,
  "E660": 660,
  "E661": 661,
  "E662": 662,
  "E663": 663,
  "E664": 664,
  "E665": 665,
  "E666": 666,
  "E667": 667,
  "E668": 668,
  "E669": 669,
  "E670": 670,
  "E671": 671,
  "E672": 672,
  "E673": 673,
  "E674": 674,
  "E675": 675,
  "E676": 676,
  "E677": 677,
  "E678": 678,
  "E679": 679,
  "E680": 680,
  "E681": 681,
  "E682": 682,
  "E683": 683,
  "E684": 684,
  "E685": 685,
  "E686": 686,
  "E687": 687,
  "E688": 688,
  "E689": 689,
  "E690": 690,
  "E691": 691,
  "E692": 692,
  "E693": 693,
  "E694": 694,
  "E695": 695,
  "E696": 696,
  "E697": 697,
  "E698": 698,
  "E699": 699,
  "E700": 700,
  "E701": 701,
  "E702": 702,
  "E703": 703,
  "E704": 704,
  "E705": 705,
  "E706": 706,
  "E707": 707,
  "E708": 708,
  "E709": 709,
  "E710": 710,
  "E711": 711,
  "E712": 712,
  "E713": 713,
  "E714": 714,
  "E715": 715,
  "E716": 716,
  "E717": 717,
  "E718": 718,
  "E719": 719,
  "E720": 720,
  "E721": 721,
  "E722": 722,
  "E723": 723,
  "E724": 724,
  "E725": 725,
  "E726": 726,
  "E727": 727,
  "E728": 728,
  "E729": 729,
  "E730": 730,
  "E731": 731,
  "E732": 732,
  "E733": 733,
  "E734": 734,
  "E735": 735,
  "E736": 736,
  "E737": 737,
  "E738": 738,
  "E739": 739,
  "E740": 740,
  "E741": 741,
  "E742": 742,
  "E743": 743,
  "E744": 744,
  "E745": 745,
  "E746": 746,
  "E747": 747,
  "E748": 748,
  "E749": 749,
  "E750": 750,
  "E751": 751,
  "E752": 752,
  "E753": 753,
  "E754": 754,
  "E755": 755,
  "E756": 756,
  "E757": 757,
  "E758": 758,
  "E759": 759,
  "E760": 760,
  "E761": 761,
  "E762": 762,
  "E763": 763,
  "E764": 764,
  "E765": 765,
  "E766": 766,
  "E767": 767,
  "E768": 768,
  "E769": 769,
  "E770": 770,
  "E771": 771,
  "E772": 772,
  "E773": 773,
  "E774": 774,
  "E775": 775,
  "E776": 776,
  "E777": 777,
  "E778": 778,
  "E779": 779,
  "E780": 780,
  "E781": 781,
  "E782": 782,
  "E783": 783,
  "E784": 784,
  "E785": 785,
  "E786": 786,
  "E787": 787,
  "E788": 788,
  "E789": 789,
  "E790": 790,
  "E791": 791,
  "E792": 792,
  "E793": 793,
  "E794": 794,
  "E795": 795,
  "E796": 796,
  "E797": 797,
  "E798": 798,
  "E799": 799,
  "E800": 800,
  "E801": 801,
  "E802": 802,
  "E803": 803,
  "E804": 804,
  "E805": 805,
  "E806": 806,
  "E807": 807,
  "E808": 808,
  "E809": 809,
  "E810": 810,
  "E811": 811,
  "E812": 812,
  "E813": 813,
  "E814": 814,
  "E815": 815,
  "E816": 816,
  "E817": 817,
  "E818": 818,
  "E819": 819,
  "E820": 820,
  "E821": 821,
  "E822": 822,
  "E823": 823,
  "E824": 824,
  "E825": 825,
  "E826": 826,
  "E827": 827,
  "E828": 828,
  "E829": 829,
  "E830": 830,
  "E831": 831,
  "E832": 832,
  "E833": 833,
  "E834": 834,
  "E835": 835,
  "E836": 836,
  "E837": 837,
  "E838": 838,
  "E839": 839,
  "E840": 840,
  "E841": 841,
  "E842": 842,
  "E843": 843,
  "E844": 844,
  "E845": 845,
  "E846": 846,
  "E847": 847,
  "E848": 848,
  "E849": 849,
  "E850": 850,
  "E851": 851,
  "E852": 852,
  "E853": 853,
  "E854": 854,
  "E855": 855,
  "E856": 856,
  "E857": 857,
  "E858": 858,
  "E859": 859,
  "E860": 860,
  "E861": 861,
  "E862": 862,
  "E863": 863,
  "E864": 864,
  "E865": 865,
  "E866": 866,
  "E867": 867,
  "E868": 868,
  "E869": 869,
  "E870": 870,
  "E871": 871,
  "E872": 872,
  "E873": 873,
  "E874": 874,
  "E875": 875,
  "E876": 876,
  "E877": 877,
  "E878": 878,
  "E879": 879,
  "E880": 880,
  "E881": 881,
  "E882": 882,
  "E883": 883,
  "E884": 884,
  "E885": 885,
  "E886": 886,
  "E887": 887,
  "E888": 888,
  "E889": 889,
  "E890": 890,
  "E891": 891,
  "E892": 892,
  "E893": 893,
  "E894": 894,
  "E895": 895,
  "E896": 896,
  "E897": 897,
  "E898": 898,
  "E899": 899,
  "E900": 900,
  "E901": 901,
  "E902": 902,
  "E903": 903,
  "E904": 904,
  "E905": 905,
  "E906": 906,
  "E907": 907,
  "E908": 908,
  "E909": 909,
  "E910": 910,
  "E911": 911,
  "E912": 912,
  "E913": 913,
  "E914": 914,
  "E915": 915,
  "E916": 916,
  "E917": 917,
  "E918": 918,
  "E919": 919,
  "E920": 920,
  "E921": 921,
  "E922": 922,
  "E923": 923,
  "E924": 924,
  "E925": 925,
  "E926": 926,
  "E927": 927,
  "E928": 928,
  "E929": 929,
  "E930": 930,
  "E931": 931,
  "E932": 932,
  "E933": 933,
  "E934": 934,
  "E935": 935,
  "E936": 936,
  "E937": 937,
  "E938": 938,
  "E939": 939,
  "E940": 940,
  "E941": 941,
  "E942": 942,
  "E943": 943,
  "E944": 944,
  "E945": 945,
  "E946": 946,
  "E947": 947,
  "E948": 948,
  "E949": 949,
  "E950": 950,
  "E951": 951,
  "E952": 952,
  "E953": 953,
  "E954": 954,
  "E955": 955,
  "E956": 956,
  "E957": 957,
  "E958": 958,
  "E959": 959,
  "E960": 960,
  "E961": 961,
  "E962": 962,
  "E963": 963,
  "E964": 964,
  "E965": 965,
  "E966": 966,
  "E967": 967,
  "E968": 968,
  "E969": 969,
  "E970": 970,
  "E971": 971,
  "E972": 972,
  "E973": 973,
  "E974": 974,
  "E975": 975,
  "E976": 976,
  "E977": 977,
  "E978": 978,
  "E979": 979,
  "E980": 980,
  "E981": 981,
  "E982": 982,
  "E983": 983,
  "E984": 984,
  "E985": 985,
  "E986": 986,
  "E987": 987,
  "E988": 988,
  "E989": 989,
  "E990": 990,
  "E991": 991,
  "E992": 992,
  "E993": 993,
  "E994": 994,
  "E995": 995,
  "E996": 996,
  "E997": 997,
  "E998": 998,
  "E999": 999,
  "E1000": 1000,
  "E1001": 1001,
  "E1002": 1002,
  "E1003": 1003,
  "E1004": 1004,
  "E1005": 1005,
  "E1006": 1006,
  "E1007": 1007,
  "E1008": 1008,
  "E1009": 1009,
  "E1010": 1010,
  "E1011": 1011,
  "E1012": 1012,
  "E1013": 1013,
  "E1014": 1014,
  "E1015": 1015,
  "E1016": 1016,
  "E1017": 1017,
  "E1018": 1018,
  "E1019": 1019,
  "E1020": 1020,
  "E1021": 1021,
  "E1022": 1022,
  "E1023": 1023,
  "E1024": 1024,
  "E1025": 1025,
  "E1026": 1026,
  "E1027": 1027,
  "E1028": 1028,
  "E1029": 1029,
  "E1030": 1030,
  "E1031": 1031,
  "E1032": 1032,
  "E1033": 1033,
  "E1034": 1034,
  "E1035": 1035,
  "E1036": 1036,
  "E1037": 1037,
  "E1038": 1038,
  "E1039": 1039,
  "E1040": 1040,
  "E1041": 1041,
  "E1042": 1042,
  "E1043": 1043,
  "E1044": 1044,
  "E1045": 1045,
  "E1046": 1046,
  "E1047": 1047,
  "E1048": 1048,
  "E1049": 1049,
  "E1050": 1050,
  "E1051": 1051,
  "E1052": 1052,
  "E1053": 1053,
  "E1054": 1054,
  "E1055": 1055,
  "E1056": 1056,
  "E1057": 1057,
  "E1058": 1058,
  "E1059": 1059,
  "E1060": 1060,
  "E1061": 1061,
  "E1062": 1062,
  "E1063": 1063,
  "E1064": 1064,
  "E1065": 1065,
  "E1066": 1066,
  "E1067": 1067,
  "E1068": 1068,
  "E1069": 1069,
  "E1070": 1070,
  "E1071": 1071,
  "E1072": 1072,
  "E1073": 1073,
  "E1074": 1074,
  "E1075": 1075,
  "E1076": 1076,
  "E1077": 1077,
  "E1078": 1078,
  "E1079": 1079,
  "E1080": 1080,
  "E1081": 1081,
  "E1082": 1082,
  "E1083": 1083,
  "E1084": 1084,
  "E1085": 1085,
  "E1086": 1086,
  "E1087": 1087,
  "E1088": 1088,
  "E1089": 1089,
  "E1090": 1090,
  "E1091": 1091,
  "E1092": 1092,
  "E1093": 1093,
  "E1094": 1094,
  "E1095": 1095,
  "E1096": 1096,
  "E1097": 1097,
  "E1098": 1098,
  "E1099": 1099,
  "E1100": 1100,
  "E1101": 1101,
  "E1102": 1102,
  "E1103": 1103,
  "E1104": 1104,
  "E1105": 1105,
  "E1106": 1106,
  "E1107": 1107,
  "E1108": 1108,
  "E1109": 1109,
  "E1110": 1110,
  "E1111": 1111,
  "E1112": 1112,
  "E1113": 1113,
  "E1114": 1114,
  "E1115": 1115,
  "E1116": 1116,
  "E1117": 1117,
  "E1118": 1118,
  "E1119": 1119,
  "E1120": 1120,
  "E1121": 1121,
  "E1122": 1122,
  "E1123": 1123,
  "E1124": 1124,
  "E1125": 1125,
  "E1126": 1126,
  "E1127": 1127,
  "E1128": 1128,
  "E1129": 1129,
  "E1130": 1130,
  "E1131": 1131,
  "E1132": 1132,
  "E1133": 1133,
  "E1134": 1134,
  "E1135": 1135,
  "E1136": 1136,
  "E1137": 1137,
  "E1138": 1138,
  "E1139": 1139,
  "E1140": 1140,
  "E1141": 1141,
  "E1142": 1142,
  "E1143": 1143,
  "E1144": 1144,
  "E1145": 1145,
  "E1146": 1146,
  "E1147": 1147,
  "E1148": 1148,
  "E1149": 1149,
  "E1150": 1150,
  "E1151": 1151,
  "E1152": 1152,
  "E1153": 1153,
  "E1154": 1154,
  "E1155": 1155,
  "E1156": 1156,
  "E1157": 1157,
  "E1158": 1158,
  "E1159": 1159,
  "E1160": 1160,
  "E1161": 1161,
  "E1162": 1162,
  "E1163": 1163,
  "E1164": 1164,
  "E1165": 1165,
  "E1166": 1166,
  "E1167": 1167,
  "E1168": 1168,
  "E1169": 1169,
  "E1170": 1170,
  "E1171": 1171,
  "E1172": 1172,
  "E1173": 1173,
  "E1174": 1174,
  "E1175": 1175,
  "E1176": 1176,
  "E1177": 1177,
  "E1178": 1178,
  "E1179": 1179,
  "E1180": 1180,
  "E1181": 1181,
  "E1182": 1182,
  "E1183": 1183,
  "E1184": 1184,
  "E1185": 1185,
  "E1186": 1186,
  "E1187": 1187,
  "E1188": 1188,
  "E1189": 1189,
  "E1190": 1190,
  "E1191": 1191,
  "E1192": 1192,
  "E1193": 1193,
  "E1194": 1194,
  "E1195": 1195,
  "E1196": 1196,
  "E1197": 1197,
  "E1198": 1198,
  "E1199": 1199,
  "E1200": 1200,
  "E1201": 1201,
  "E1202": 1202,
  "E1203": 1203,
  "E1204": 1204,
  "E1205": 1205,
  "E1206": 1206,
  "E1207": 1207,
  "E1208": 1208,
  "E1209": 1209,
  "E1210": 1210,
  "E1211": 1211,
  "E1212": 1212,
  "E1213": 1213,
  "E1214": 1214,
  "E1215": 1215,
  "E1216": 1216,
  "E1217": 1217,
  "E1218": 1218,
  "E1219": 1219,
  "E1220": 1220,
  "E1221": 1221,
  "E1222": 1222,
  "E1223": 1223,
  "E1224": 1224,
  "E1225": 1225,
  "E1226": 1226,
  "E1227": 1227,
  "E1228": 1228,
  "E1229": 1229,
  "E1230": 1230,
  "E1231": 1231,
  "E1232": 1232,
  "E1233": 1233,
  "E1234": 1234,
  "E1235": 1235,
  "E1236": 1236,
  "E1237": 1237,
  "E1238": 1238,
  "E1239": 1239,
  "E1240": 1240,
  "E1241": 1241,
  "E1242": 1242,
  "E1243": 1243,
  "E1244": 1244,
  "E1245": 1245,
  "E1246": 1246,
  "E1247": 1247,
  "E1248": 1248,
  "E1249": 1249,
  "E1250": 1250,
  "E1251": 1251,
  "E1252": 1252,
  "E1253": 1253,
  "E1254": 1254,
  "E1255": 1255,
  "E1256": 1256,
  "E1257": 1257,
  "E1258": 1258,
  "E1259": 1259,
  "E1260": 1260,
  "E1261": 1261,
  "E1262": 1262,
  "E1263": 1263,
  "E1264": 1264,
  "E1265": 1265,
  "E1266": 1266,
  "E1267": 1267,
  "E1268": 1268,
  "E1269": 1269,
  "E1270": 1270,
  "E1271": 1271,
  "E1272": 1272,
  "E1273": 1273,
  "E1274": 1274,
  "E1275": 1275,
  "E1276": 1276,
  "E1277": 1277,
  "E1278": 1278,
  "E1279": 1279,
  "E1280": 1280,
  "E1281": 1281,
  "E1282": 1282,
  "E1283": 1283,
  "E1284": 1284,
  "E1285": 1285,
  "E1286": 1286,
  "E1287": 1287,
  "E1288": 1288,
  "E1289": 1289,
  "E1290": 1290,
  "E1291": 1291,
  "E1292": 1292,
  "E1293": 1293,
  "E1294": 1294,
  "E1295": 1295,
  "E1296": 1296,
  "E1297": 1297,
  "E1298": 1298,
  "E1299": 1299,
  "E1300": 1300,
  "E1301": 1301,
  "E1302": 1302,
  "E1303": 1303,
  "E1304": 1304,
  "E1305": 1305,
  "E1306": 1306,
  "E1307": 1307,
  "E1308": 1308,
  "E1309": 1309,
  "E1310": 1310,
  "E1311": 1311,
  "E1312": 1312,
  "E1313": 1313,
  "E1314": 1314,
  "E1315": 1315,
  "E1316": 1316,
  "E1317": 1317,
  "E1318": 1318,
  "E1319": 1319,
  "E1320": 1320,
  "E1321": 1321,
  "E1322": 1322,
  "E1323": 1323,
  "E1324": 1324,
  "E1325": 1325,
  "E1326": 1326,
  "E1327": 1327,
  "E1328": 1328,
  "E1329": 1329,
  "E1330": 1330,
  "E1331": 1331,
  "E1332": 1332,
  "E1333": 1333,
  "E1334": 1334,
  "E1335": 1335,
  "E1336": 1336,
  "E1337": 1337,
  "E1338": 1338,
  "E1339": 1339,
  "E1340": 1340,
  "E1341": 1341,
  "E1342": 1342,
  "E1343": 1343,
  "E1344": 1344,
  "E1345": 1345,
  "E1346": 1346,
  "E1347": 1347,
  "E1348": 1348,
  "E1349": 1349,
  "E1350": 1350,
  "E1351": 1351,
  "E1352": 1352,
  "E1353": 1353,
  "E1354": 1354,
  "E1355": 1355,
  "E1356": 1356,
  "E1357": 1357,
  "E1358": 1358,
  "E1359": 1359,
  "E1360": 1360,
  "E1361": 1361,
  "E1362": 1362,
  "E1363": 1363,
  "E1364": 1364,
  "E1365": 1365,
  "E1366": 1366,
  "E1367": 1367,
  "E1368": 1368,
  "E1369": 1369,
  "E1370": 1370,
  "E1371": 1371,
  "E1372": 1372,
  "E1373": 1373,
  "E1374": 1374,
  "E1375": 1375,
  "E1376": 1376,
  "E1377": 1377,
  "E1378": 1378,
  "E1379": 1379,
  "E1380": 1380,
  "E1381": 1381,
  "E1382": 1382,
  "E1383": 1383,
  "E1384": 1384,
  "E1385": 1385,
  "E1386": 1386,
  "E1387": 1387,
  "E1388": 1388,
  "E1389": 1389,
  "E1390": 1390,
  "E1391": 1391,
  "E1392": 1392,
  "E1393": 1393,
  "E1394": 1394,
  "E1395": 1395,
  "E1396": 1396,
  "E1397": 1397,
  "E1398": 1398,
  "E1399": 1399,
  "E1400": 1400,
  "E1401": 1401,
  "E1402": 1402,
  "E1403": 1403,
  "E1404": 1404,
  "E1405": 1405,
  "E1406": 1406,
  "E1407": 1407,
  "E1408": 1408,
  "E1409": 1409,
  "E1410": 1410,
  "E1411": 1411,
  "E1412": 1412,
  "E1413": 1413,
  "E1414": 1414,
  "E1415": 1415,
  "E1416": 1416,
  "E1417": 1417,
  "E1418": 1418,
  "E1419": 1419,
  "E1420": 1420,
  "E1421": 1421,
  "E1422": 1422,
  "E1423": 1423,
  "E1424": 1424,
  "E1425": 1425,
  "E1426": 1426,
  "E1427": 1427,
  "E1428": 1428,
  "E1429": 1429,
  "E1430": 1430,
  "E1431": 1431,
  "E1432": 1432,
  "E1433": 1433,
  "E1434": 1434,
  "E1435": 1435,
  "E1436": 1436,
  "E1437": 1437,
  "E1438": 1438,
  "E1439": 1439,
  "E1440": 1440
}