{
  "<PAD>": 0,
  "E1": 1,
  "E2": 2,
  "E3": 3,
  "E4": 4,
  "E5": 5,
  "E6": 6,
  "E7": 7,
  "E8": 8,
  "E9": 9,
  "E10": 10,
  "E11": 11,
  "E12": 12,
  "E13": 13,
  "E14": 14,
  "E15": 15,
  "E16": 16,
  "E19": 17,
  "E20": 18,
  "E21": 19,
  "E22": 20,
  "E23": 21,
  "E24": 22,
  "E25": 23,
  "E26": 24,
  "E27": 25,
  "E28": 26,
  "E29": 27,
  "E30": 28,
  "E31": 29,
  "E32": 30,
  "E33": 31,
  "E34": 32,
  "E35": 33,
  "E36": 34,
  "E37": 35,
  "E38": 36,
  "E39": 37,
  "E40": 38,
  "E41": 39,
  "E42": 40,
  "E43": 41,
  "E44": 42,
  "E45": 43,
  "E46": 44,
  "E47": 45,
  "E48": 46,
  "E49": 47,
  "E50": 48,
  "E51": 49,
  "E52": 50,
  "E53": 51,
  "E54": 52,
  "E56": 53,
  "E57": 54,
  "E58": 55,
  "E59": 56,
  "E60": 57,
  "E61": 58,
  "E62": 59,
  "E63": 60,
  "E64": 61,
  "E65": 62,
  "E66": 63,
  "E67": 64,
  "E68": 65,
  "E69": 66,
  "E70": 67,
  "E71": 68,
  "E73": 69,
  "E74": 70,
  "E75": 71,
  "E77": 72,
  "E78": 73,
  "E79": 74,
  "E80": 75,
  "E81": 76,
  "E82": 77,
  "E83": 78,
  "E84": 79,
  "E85": 80,
  "E86": 81,
  "E87": 82,
  "E88": 83,
  "E89": 84,
  "E90": 85,
  "E91": 86,
  "E92": 87,
  "E93": 88,
  "E94": 89,
  "E95": 90,
  "E96": 91,
  "E97": 92,
  "E98": 93,
  "E99": 94,
  "E100": 95,
  "E102": 96,
  "E103": 97,
  "E104": 98,
  "E105": 99,
  "E106": 100,
  "E107": 101,
  "E108": 102,
  "E109": 103,
  "E110": 104,
  "E111": 105,
  "E112": 106,
  "E113": 107,
  "E114": 108,
  "E115": 109,
  "E116": 110,
  "E117": 111,
  "E118": 112,
  "E119": 113,
  "E120": 114,
  "E121": 115,
  "E122": 116,
  "E123": 117,
  "E124": 118,
  "E125": 119,
  "E126": 120,
  "E127": 121,
  "E128": 122,
  "E129": 123,
  "E130": 124,
  "E131": 125,
  "E132": 126,
  "E133": 127,
  "E134": 128,
  "E135": 129,
  "E136": 130,
  "E137": 131,
  "E138": 132,
  "E139": 133,
  "E140": 134,
  "E141": 135,
  "E142": 136,
  "E143": 137,
  "E144": 138,
  "E145": 139,
  "E146": 140,
  "E147": 141,
  "E148": 142,
  "E149": 143,
  "E150": 144,
  "E151": 145,
  "E152": 146,
  "E153": 147,
  "E154": 148,
  "E155": 149,
  "E156": 150,
  "E157": 151,
  "E158": 152,
  "E159": 153,
  "E160": 154,
  "E162": 155,
  "E163": 156,
  "E164": 157,
  "E165": 158,
  "E166": 159,
  "E167": 160,
  "E168": 161,
  "E169": 162,
  "E170": 163,
  "E171": 164,
  "E172": 165,
  "E173": 166,
  "E174": 167,
  "E175": 168,
  "E176": 169,
  "E177": 170,
  "E178": 171,
  "E179": 172,
  "E180": 173,
  "E181": 174,
  "E182": 175,
  "E183": 176,
  "E184": 177,
  "E185": 178,
  "E186": 179,
  "E187": 180,
  "E188": 181,
  "E189": 182,
  "E190": 183,
  "E191": 184,
  "E192": 185,
  "E193": 186,
  "E194": 187,
  "E195": 188,
  "E196": 189,
  "E197": 190,
  "E198": 191,
  "E199": 192,
  "E200": 193,
  "E201": 194,
  "E202": 195,
  "E203": 196,
  "E204": 197,
  "E205": 198,
  "E206": 199,
  "E207": 200,
  "E208": 201,
  "E209": 202,
  "E210": 203,
  "E211": 204,
  "E212": 205,
  "E213": 206,
  "E214": 207,
  "E215": 208,
  "E216": 209,
  "E217": 210,
  "E218": 211,
  "E219": 212,
  "E220": 213,
  "E221": 214,
  "E222": 215,
  "E223": 216,
  "E224": 217,
  "E225": 218,
  "E226": 219,
  "E227": 220,
  "E228": 221,
  "E229": 222,
  "E230": 223,
  "E231": 224,
  "E232": 225,
  "E233": 226,
  "E234": 227,
  "E235": 228,
  "E236": 229,
  "E237": 230,
  "E238": 231,
  "E239": 232,
  "E240": 233,
  "E241": 234,
  "E242": 235,
  "E244": 236,
  "E245": 237,
  "E246": 238,
  "E247": 239,
  "E248": 240,
  "E249": 241,
  "E250": 242,
  "E251": 243,
  "E252": 244,
  "E253": 245,
  "E254": 246,
  "E255": 247,
  "E256": 248,
  "E257": 249,
  "E258": 250,
  "E259": 251,
  "E260": 252,
  "E261": 253,
  "E262": 254,
  "E263": 255,
  "E264": 256,
  "E266": 257,
  "E267": 258,
  "E268": 259,
  "E269": 260,
  "E270": 261,
  "E271": 262,
  "E272": 263,
  "E273": 264,
  "E274": 265,
  "E275": 266,
  "E276": 267,
  "E277": 268,
  "E278": 269,
  "E279": 270,
  "E281": 271,
  "E282": 272,
  "E283": 273,
  "E284": 274,
  "E285": 275,
  "E286": 276,
  "E287": 277,
  "E290": 278,
  "E291": 279,
  "E292": 280,
  "E293": 281,
  "E294": 282,
  "E295": 283,
  "E296": 284,
  "E297": 285,
  "E298": 286,
  "E299": 287,
  "E300": 288,
  "E301": 289,
  "E302": 290,
  "E303": 291,
  "E304": 292,
  "E305": 293,
  "E306": 294,
  "E307": 295,
  "E308": 296,
  "E309": 297,
  "E310": 298,
  "E311": 299,
  "E312": 300,
  "E313": 301,
  "E314": 302,
  "E315": 303,
  "E316": 304,
  "E317": 305,
  "E318": 306,
  "E319": 307,
  "E320": 308,
  "E321": 309,
  "E322": 310,
  "E323": 311,
  "E324": 312,
  "E325": 313,
  "E326": 314,
  "E327": 315,
  "E328": 316,
  "E329": 317,
  "E330": 318,
  "E331": 319,
  "E333": 320,
  "E334": 321,
  "E335": 322,
  "E336": 323,
  "E337": 324,
  "E338": 325,
  "E339": 326,
  "E340": 327,
  "E341": 328,
  "E342": 329,
  "E343": 330,
  "E344": 331,
  "E345": 332,
  "E346": 333,
  "E347": 334,
  "E348": 335,
  "E349": 336,
  "E350": 337,
  "E351": 338,
  "E352": 339,
  "E353": 340,
  "E354": 341,
  "E355": 342,
  "E356": 343,
  "E357": 344,
  "E358": 345,
  "E359": 346,
  "E360": 347,
  "E361": 348,
  "E362": 349,
  "E363": 350,
  "E364": 351,
  "E365": 352,
  "E366": 353,
  "E367": 354,
  "E368": 355,
  "E369": 356,
  "E370": 357,
  "E371": 358,
  "E372": 359,
  "E373": 360,
  "E374": 361,
  "E375": 362,
  "E376": 363,
  "E377": 364,
  "E378": 365,
  "E379": 366,
  "E380": 367,
  "E381": 368,
  "E384": 369,
  "E385": 370,
  "E387": 371,
  "E388": 372,
  "E389": 373,
  "E390": 374,
  "E391": 375,
  "E392": 376,
  "E394": 377,
  "E395": 378,
  "E396": 379,
  "E397": 380,
  "E398": 381,
  "E399": 382,
  "E400": 383,
  "E401": 384,
  "E402": 385,
  "E403": 386,
  "E404": 387,
  "E405": 388,
  "E406": 389,
  "E407": 390,
  "E408": 391,
  "E409": 392,
  "E410": 393,
  "E412": 394,
  "E413": 395,
  "E414": 396,
  "E415": 397,
  "E416": 398,
  "E417": 399,
  "E418": 400,
  "E419": 401,
  "E420": 402,
  "E421": 403,
  "E422": 404,
  "E423": 405,
  "E425": 406,
  "E426": 407,
  "E427": 408,
  "E428": 409,
  "E429": 410,
  "E430": 411,
  "E431": 412,
  "E432": 413,
  "E433": 414,
  "E434": 415,
  "E435": 416,
  "E436": 417,
  "E437": 418,
  "E438": 419,
  "E439": 420,
  "E440": 421,
  "E441": 422,
  "E442": 423,
  "E443": 424,
  "E444": 425,
  "E445": 426,
  "E446": 427,
  "E447": 428,
  "E448": 429,
  "E449": 430,
  "E450": 431,
  "E451": 432,
  "E452": 433,
  "E453": 434,
  "E454": 435,
  "E455": 436,
  "E456": 437,
  "E457": 438,
  "E458": 439,
  "E459": 440,
  "E460": 441,
  "E461": 442,
  "E462": 443,
  "E463": 444,
  "E464": 445,
  "E465": 446,
  "E466": 447,
  "E467": 448,
  "E468": 449,
  "E469": 450,
  "E470": 451,
  "E471": 452,
  "E472": 453,
  "E473": 454,
  "E474": 455,
  "E475": 456,
  "E476": 457,
  "E477": 458,
  "E478": 459,
  "E479": 460,
  "E480": 461,
  "E481": 462,
  "E482": 463,
  "E483": 464,
  "E484": 465,
  "E485": 466,
  "E486": 467,
  "E487": 468,
  "E488": 469,
  "E489": 470,
  "E490": 471,
  "E491": 472,
  "E492": 473,
  "E493": 474,
  "E494": 475,
  "E495": 476,
  "E496": 477,
  "E497": 478,
  "E498": 479,
  "E499": 480,
  "E500": 481,
  "E501": 482,
  "E502": 483,
  "E503": 484,
  "E504": 485,
  "E505": 486,
  "E506": 487,
  "E507": 488,
  "E508": 489,
  "E509": 490,
  "E510": 491,
  "E511": 492,
  "E512": 493,
  "E513": 494,
  "E514": 495,
  "E515": 496,
  "E516": 497,
  "E517": 498,
  "E518": 499,
  "E519": 500,
  "E520": 501,
  "E521": 502,
  "E522": 503,
  "E523": 504,
  "E524": 505,
  "E525": 506,
  "E526": 507,
  "E527": 508,
  "E528": 509,
  "E529": 510,
  "E530": 511,
  "E531": 512,
  "E532": 513,
  "E533": 514,
  "E534": 515,
  "E535": 516,
  "E536": 517,
  "E537": 518,
  "E538": 519,
  "E539": 520,
  "E540": 521,
  "E541": 522,
  "E542": 523,
  "E543": 524,
  "E544": 525,
  "E545": 526,
  "E546": 527,
  "E547": 528,
  "E548": 529,
  "E549": 530,
  "E550": 531,
  "E551": 532,
  "E552": 533,
  "E553": 534,
  "E554": 535,
  "E555": 536,
  "E556": 537,
  "E557": 538,
  "E558": 539,
  "E559": 540,
  "E560": 541,
  "E561": 542,
  "E562": 543,
  "E563": 544,
  "E564": 545,
  "E565": 546,
  "E566": 547,
  "E567": 548,
  "E568": 549,
  "E569": 550,
  "E570": 551,
  "E571": 552,
  "E572": 553,
  "E573": 554,
  "E574": 555,
  "E575": 556,
  "E576": 557,
  "E577": 558,
  "E578": 559,
  "E579": 560,
  "E580": 561,
  "E581": 562,
  "E582": 563,
  "E583": 564,
  "E584": 565,
  "E585": 566,
  "E586": 567,
  "E587": 568,
  "E588": 569,
  "E589": 570,
  "E590": 571,
  "E591": 572,
  "E592": 573,
  "E593": 574,
  "E594": 575,
  "E595": 576,
  "E596": 577,
  "E597": 578,
  "E598": 579,
  "E599": 580,
  "E600": 581,
  "E601": 582,
  "E602": 583,
  "E603": 584,
  "E604": 585,
  "E605": 586,
  "E606": 587,
  "E607": 588,
  "E608": 589,
  "E609": 590,
  "E610": 591,
  "E611": 592,
  "E612": 593,
  "E613": 594,
  "E614": 595,
  "E615": 596,
  "E616": 597,
  "E617": 598,
  "E618": 599,
  "E619": 600,
  "E620": 601,
  "E622": 602,
  "E623": 603,
  "E624": 604,
  "E625": 605,
  "E626": 606,
  "E627": 607,
  "E628": 608,
  "E629": 609,
  "E630": 610,
  "E631": 611,
  "E632": 612,
  "E633": 613,
  "E634": 614,
  "E635": 615,
  "E636": 616,
  "E637": 617,
  "E638": 618,
  "E639": 619,
  "E640": 620,
  "E641": 621,
  "E642": 622,
  "E643": 623,
  "E644": 624,
  "E645": 625,
  "E646": 626,
  "E647": 627,
  "E648": 628,
  "E649": 629,
  "E650": 630,
  "E651": 631,
  "E652": 632,
  "E653": 633,
  "E654": 634,
  "E655": 635,
  "E656": 636,
  "E657": 637,
  "E658": 638,
  "E659": 639,
  "E660": 640,
  "E661": 641,
  "E662": 642,
  "E663": 643,
  "E664": 644,
  "E665": 645,
  "E666": 646,
  "E667": 647,
  "E668": 648,
  "E669": 649,
  "E670": 650,
  "E671": 651,
  "E672": 652,
  "E673": 653,
  "E674": 654,
  "E675": 655,
  "E676": 656,
  "E677": 657,
  "E678": 658,
  "E679": 659,
  "E680": 660,
  "E681": 661,
  "E682": 662,
  "E683": 663,
  "E684": 664,
  "E685": 665,
  "E686": 666,
  "E687": 667,
  "E688": 668,
  "E689": 669,
  "E690": 670,
  "E691": 671,
  "E692": 672,
  "E693": 673,
  "E694": 674,
  "E695": 675,
  "E696": 676,
  "E697": 677,
  "E698": 678,
  "E699": 679,
  "E700": 680,
  "E701": 681,
  "E702": 682,
  "E703": 683,
  "E704": 684,
  "E705": 685,
  "E706": 686,
  "E707": 687,
  "E708": 688,
  "E710": 689,
  "E711": 690,
  "E712": 691,
  "E713": 692,
  "E714": 693,
  "E715": 694,
  "E716": 695,
  "E717": 696,
  "E718": 697,
  "E719": 698,
  "E720": 699,
  "E721": 700,
  "E722": 701,
  "E723": 702,
  "E724": 703,
  "E725": 704,
  "E726": 705,
  "E727": 706,
  "E728": 707,
  "E729": 708,
  "E730": 709,
  "E731": 710,
  "E732": 711,
  "E733": 712,
  "E734": 713,
  "E735": 714,
  "E736": 715,
  "E737": 716,
  "E738": 717,
  "E739": 718,
  "E740": 719,
  "E741": 720,
  "E742": 721,
  "E743": 722,
  "E744": 723,
  "E745": 724,
  "E746": 725,
  "E747": 726,
  "E748": 727,
  "E749": 728,
  "E750": 729,
  "E751": 730,
  "E752": 731,
  "E753": 732,
  "E754": 733,
  "E755": 734,
  "E756": 735,
  "E757": 736,
  "E758": 737,
  "E759": 738,
  "E761": 739,
  "E763": 740,
  "E764": 741,
  "E765": 742,
  "E766": 743,
  "E767": 744,
  "E768": 745,
  "E769": 746,
  "E770": 747,
  "E771": 748,
  "E772": 749,
  "E773": 750,
  "E774": 751,
  "E775": 752,
  "E776": 753,
  "E777": 754,
  "E778": 755,
  "E779": 756,
  "E780": 757,
  "E781": 758,
  "E782": 759,
  "E783": 760,
  "E784": 761,
  "E785": 762,
  "E786": 763,
  "E787": 764,
  "E788": 765,
  "E789": 766,
  "E790": 767,
  "E791": 768,
  "E792": 769,
  "E793": 770,
  "E794": 771,
  "E795": 772,
  "E796": 773,
  "E797": 774,
  "E798": 775,
  "E799": 776,
  "E800": 777,
  "E801": 778,
  "E802": 779,
  "E803": 780,
  "E804": 781,
  "E805": 782,
  "E806": 783,
  "E807": 784,
  "E808": 785,
  "E809": 786,
  "E810": 787,
  "E811": 788,
  "E812": 789,
  "E814": 790,
  "E815": 791,
  "E816": 792,
  "E817": 793,
  "E818": 794,
  "E819": 795,
  "E820": 796,
  "E821": 797,
  "E822": 798,
  "E823": 799,
  "E824": 800,
  "E825": 801,
  "E826": 802,
  "E827": 803,
  "E828": 804,
  "E829": 805,
  "E830": 806,
  "E831": 807,
  "E832": 808,
  "E833": 809,
  "E834": 810,
  "E835": 811,
  "E836": 812,
  "E837": 813,
  "E838": 814,
  "E839": 815,
  "E840": 816,
  "E841": 817,
  "E842": 818,
  "E843": 819,
  "E844": 820,
  "E845": 821,
  "E846": 822,
  "E847": 823,
  "E848": 824,
  "E849": 825,
  "E850": 826,
  "E851": 827,
  "E852": 828,
  "E853": 829,
  "E854": 830,
  "E855": 831,
  "E856": 832,
  "E857": 833,
  "E858": 834,
  "E859": 835,
  "E860": 836,
  "E861": 837,
  "E862": 838,
  "E863": 839,
  "E864": 840,
  "E865": 841,
  "E866": 842,
  "E867": 843,
  "E868": 844,
  "E869": 845,
  "E870": 846,
  "E871": 847,
  "E872": 848,
  "E873": 849,
  "E874": 850,
  "E875": 851,
  "E876": 852,
  "E877": 853,
  "E878": 854,
  "E879": 855,
  "E880": 856,
  "E881": 857,
  "E882": 858,
  "E883": 859,
  "E884": 860,
  "E885": 861,
  "E886": 862,
  "E887": 863,
  "E888": 864,
  "E889": 865,
  "E890": 866,
  "E891": 867,
  "E892": 868,
  "E893": 869,
  "E894": 870,
  "E895": 871,
  "E896": 872,
  "E897": 873,
  "E898": 874,
  "E899": 875,
  "E900": 876,
  "E901": 877,
  "E902": 878,
  "E903": 879,
  "E904": 880,
  "E905": 881,
  "E906": 882,
  "E907": 883,
  "E908": 884,
  "E909": 885,
  "E910": 886,
  "E911": 887,
  "E912": 888,
  "E913": 889,
  "E914": 890,
  "E915": 891,
  "E916": 892,
  "E917": 893,
  "E918": 894,
  "E919": 895,
  "E920": 896,
  "E921": 897,
  "E922": 898,
  "E923": 899,
  "E924": 900,
  "E925": 901,
  "E926": 902,
  "E927": 903,
  "E928": 904,
  "E929": 905,
  "E930": 906,
  "E931": 907,
  "E932": 908,
  "E933": 909,
  "E934": 910,
  "E935": 911,
  "E936": 912,
  "E937": 913,
  "E938": 914,
  "E939": 915,
  "E940": 916,
  "E941": 917,
  "E942": 918,
  "E943": 919,
  "E944": 920,
  "E945": 921,
  "E946": 922,
  "E947": 923,
  "E948": 924,
  "E949": 925,
  "E950": 926,
  "E951": 927,
  "E952": 928,
  "E953": 929,
  "E954": 930,
  "E955": 931,
  "E956": 932,
  "E957": 933,
  "E958": 934,
  "E959": 935,
  "E960": 936,
  "E961": 937,
  "E962": 938,
  "E963": 939,
  "E964": 940,
  "E965": 941,
  "E966": 942,
  "E967": 943,
  "E968": 944,
  "E969": 945,
  "E970": 946,
  "E971": 947,
  "E972": 948,
  "E973": 949,
  "E974": 950,
  "E975": 951,
  "E976": 952,
  "E977": 953,
  "E978": 954,
  "E979": 955,
  "E980": 956,
  "E981": 957,
  "E982": 958,
  "E983": 959,
  "E984": 960,
  "E985": 961,
  "E986": 962,
  "E987": 963,
  "E988": 964,
  "E989": 965,
  "E990": 966,
  "E991": 967,
  "E992": 968,
  "E993": 969,
  "E994": 970,
  "E995": 971,
  "E996": 972,
  "E997": 973,
  "E998": 974,
  "E999": 975,
  "E1000": 976,
  "E1001": 977,
  "E1002": 978,
  "E1003": 979,
  "E1004": 980,
  "E1005": 981,
  "E1006": 982,
  "E1007": 983,
  "E1008": 984,
  "E1009": 985,
  "E1010": 986,
  "E1011": 987,
  "E1012": 988,
  "E1013": 989,
  "E1014": 990,
  "E1015": 991,
  "E1016": 992,
  "E1017": 993,
  "E1018": 994,
  "E1019": 995,
  "E1020": 996,
  "E1021": 997,
  "E1022": 998,
  "E1023": 999,
  "E1024": 1000,
  "E1025": 1001,
  "E1026": 1002,
  "E1027": 1003,
  "E1028": 1004,
  "E1029": 1005,
  "E1030": 1006,
  "E1031": 1007,
  "E1032": 1008,
  "E1033": 1009,
  "E1034": 1010,
  "E1035": 1011,
  "E1036": 1012,
  "E1037": 1013,
  "E1038": 1014,
  "E1039": 1015,
  "E1040": 1016,
  "E1041": 1017,
  "E1042": 1018,
  "E1043": 1019,
  "E1044": 1020,
  "E1045": 1021,
  "E1046": 1022,
  "E1047": 1023,
  "E1048": 1024,
  "E1049": 1025,
  "E1050": 1026,
  "E1051": 1027,
  "E1052": 1028,
  "E1053": 1029,
  "E1054": 1030,
  "E1055": 1031,
  "E1056": 1032,
  "E1057": 1033,
  "E1058": 1034,
  "E1059": 1035,
  "E1060": 1036,
  "E1061": 1037,
  "E1062": 1038,
  "E1063": 1039,
  "E1064": 1040,
  "E1065": 1041,
  "E1066": 1042,
  "E1067": 1043,
  "E1068": 1044,
  "E1069": 1045,
  "E1070": 1046,
  "E1071": 1047,
  "E1072": 1048,
  "E1073": 1049,
  "E1074": 1050,
  "E1075": 1051,
  "E1076": 1052,
  "E1077": 1053,
  "E1078": 1054,
  "E1079": 1055,
  "E1080": 1056,
  "E1081": 1057,
  "E1082": 1058,
  "E1083": 1059,
  "E1084": 1060,
  "E1085": 1061,
  "E1086": 1062,
  "E1087": 1063,
  "E1088": 1064,
  "E1089": 1065,
  "E1090": 1066,
  "E1091": 1067,
  "E1092": 1068,
  "E1093": 1069,
  "E1094": 1070,
  "E1095": 1071,
  "E1096": 1072,
  "E1097": 1073,
  "E1098": 1074,
  "E1099": 1075,
  "E1100": 1076,
  "E1101": 1077,
  "E1102": 1078,
  "E1103": 1079,
  "E1104": 1080,
  "E1105": 1081,
  "E1106": 1082,
  "E1107": 1083,
  "E1108": 1084,
  "E1109": 1085,
  "E1110": 1086,
  "E1111": 1087,
  "E1112": 1088,
  "E1113": 1089,
  "E1114": 1090,
  "E1115": 1091,
  "E1116": 1092,
  "E1117": 1093,
  "E1118": 1094,
  "E1119": 1095,
  "E1120": 1096,
  "E1121": 1097,
  "E1122": 1098,
  "E1123": 1099,
  "E1124": 1100,
  "E1125": 1101,
  "E1126": 1102,
  "E1127": 1103,
  "E1128": 1104,
  "E1129": 1105,
  "E1130": 1106,
  "E1131": 1107,
  "E1132": 1108,
  "E1133": 1109,
  "E1134": 1110,
  "E1135": 1111,
  "E1136": 1112,
  "E1137": 1113,
  "E1138": 1114,
  "E1139": 1115,
  "E1140": 1116,
  "E1141": 1117,
  "E1142": 1118,
  "E1143": 1119,
  "E1144": 1120,
  "E1145": 1121,
  "E1146": 1122,
  "E1147": 1123,
  "E1148": 1124,
  "E1149": 1125,
  "E1150": 1126,
  "E1151": 1127,
  "E1152": 1128,
  "E1153": 1129,
  "E1154": 1130,
  "E1155": 1131,
  "E1156": 1132,
  "E1157": 1133,
  "E1158": 1134,
  "E1159": 1135,
  "E1160": 1136,
  "E1161": 1137,
  "E1162": 1138,
  "E1163": 1139,
  "E1164": 1140,
  "E1165": 1141,
  "E1166": 1142,
  "E1167": 1143,
  "E1168": 1144,
  "E1169": 1145,
  "E1170": 1146,
  "E1171": 1147,
  "E1172": 1148,
  "E1173": 1149,
  "E1174": 1150,
  "E1175": 1151,
  "E1176": 1152,
  "E1177": 1153,
  "E1178": 1154,
  "E1179": 1155,
  "E1180": 1156,
  "E1181": 1157,
  "E1182": 1158,
  "E1183": 1159,
  "E1184": 1160,
  "E1185": 1161,
  "E1186": 1162,
  "E1187": 1163,
  "E1188": 1164,
  "E1189": 1165,
  "E1190": 1166,
  "E1191": 1167,
  "E1192": 1168,
  "E1193": 1169,
  "E1194": 1170,
  "E1195": 1171,
  "E1196": 1172,
  "E1197": 1173,
  "E1198": 1174,
  "E1199": 1175,
  "E1200": 1176,
  "E1201": 1177,
  "E1202": 1178,
  "E1203": 1179,
  "E1204": 1180,
  "E1205": 1181,
  "E1206": 1182,
  "E1207": 1183,
  "E1208": 1184,
  "E1209": 1185,
  "E1210": 1186,
  "E1211": 1187,
  "E1212": 1188,
  "E1213": 1189,
  "E1214": 1190,
  "E1215": 1191,
  "E1216": 1192,
  "E1217": 1193,
  "E1218": 1194,
  "E1219": 1195,
  "E1220": 1196,
  "E1221": 1197,
  "E1222": 1198,
  "E1223": 1199,
  "E1224": 1200,
  "E1225": 1201,
  "E1226": 1202,
  "E1227": 1203,
  "E1228": 1204,
  "E1229": 1205,
  "E1230": 1206,
  "E1231": 1207,
  "E1232": 1208,
  "E1233": 1209,
  "E1234": 1210,
  "E1235": 1211,
  "E1236": 1212,
  "E1237": 1213,
  "E1238": 1214,
  "E1239": 1215,
  "E1240": 1216,
  "E1241": 1217,
  "E1242": 1218,
  "E1243": 1219,
  "E1244": 1220,
  "E1245": 1221,
  "E1246": 1222,
  "E1247": 1223,
  "E1248": 1224,
  "E1249": 1225,
  "E1250": 1226,
  "E1251": 1227,
  "E1252": 1228,
  "E1253": 1229,
  "E1254": 1230,
  "E1255": 1231,
  "E1256": 1232,
  "E1257": 1233,
  "E1258": 1234,
  "E1259": 1235,
  "E1260": 1236,
  "E1261": 1237,
  "E1262": 1238,
  "E1263": 1239,
  "E1264": 1240,
  "E1265": 1241,
  "E1266": 1242,
  "E1267": 1243,
  "E1268": 1244,
  "E1269": 1245,
  "E1270": 1246,
  "E1271": 1247,
  "E1272": 1248,
  "E1273": 1249,
  "E1274": 1250,
  "E1275": 1251,
  "E1276": 1252,
  "E1277": 1253,
  "E1278": 1254,
  "E1279": 1255,
  "E1280": 1256,
  "E1281": 1257,
  "E1282": 1258,
  "E1283": 1259,
  "E1284": 1260,
  "E1285": 1261,
  "E1286": 1262,
  "E1287": 1263,
  "E1288": 1264,
  "E1289": 1265,
  "E1290": 1266,
  "E1291": 1267,
  "E1292": 1268,
  "E1293": 1269,
  "E1294": 1270,
  "E1295": 1271,
  "E1296": 1272,
  "E1297": 1273,
  "E1298": 1274,
  "E1299": 1275,
  "E1300": 1276,
  "E1301": 1277,
  "E1302": 1278,
  "E1303": 1279,
  "E1304": 1280,
  "E1305": 1281,
  "E1306": 1282,
  "E1307": 1283,
  "E1308": 1284,
  "E1309": 1285,
  "E1310": 1286,
  "E1311": 1287,
  "E1312": 1288,
  "E1313": 1289,
  "E1314": 1290,
  "E1315": 1291,
  "E1316": 1292,
  "E1317": 1293,
  "E1318": 1294,
  "E1319": 1295,
  "E1320": 1296,
  "E1321": 1297,
  "E1322": 1298,
  "E1323": 1299,
  "E1324": 1300,
  "E1325": 1301,
  "E1326": 1302,
  "E1327": 1303,
  "E1328": 1304,
  "E1329": 1305,
  "E1330": 1306,
  "E1331": 1307,
  "E1332": 1308,
  "E1333": 1309,
  "E1334": 1310,
  "E1335": 1311,
  "E1336": 1312,
  "E1337": 1313,
  "E1338": 1314,
  "E1339": 1315,
  "E1340": 1316,
  "E1341": 1317,
  "E1342": 1318,
  "E1343": 1319,
  "E1344": 1320,
  "E1345": 1321,
  "E1346": 1322,
  "E1347": 1323,
  "E1348": 1324,
  "E1349": 1325,
  "E1350": 1326,
  "E1351": 1327,
  "E1352": 1328,
  "E1353": 1329,
  "E1354": 1330,
  "E1355": 1331,
  "E1356": 1332,
  "E1357": 1333,
  "E1358": 1334,
  "E1359": 1335,
  "E1360": 1336,
  "E1361": 1337,
  "E1362": 1338,
  "E1363": 1339,
  "E1364": 1340,
  "E1365": 1341,
  "E1366": 1342,
  "E1367": 1343,
  "E1368": 1344,
  "E1369": 1345,
  "E1370": 1346,
  "E1371": 1347,
  "E1372": 1348,
  "E1373": 1349,
  "E1374": 1350,
  "E1375": 1351,
  "E1376": 1352,
  "E1377": 1353,
  "E1378": 1354,
  "E1379": 1355,
  "E1380": 1356,
  "E1381": 1357,
  "E1382": 1358,
  "E1383": 1359,
  "E1384": 1360,
  "E1385": 1361,
  "E1386": 1362,
  "E1387": 1363,
  "E1388": 1364,
  "E1389": 1365,
  "E1390": 1366,
  "E1391": 1367,
  "E1392": 1368,
  "E1393": 1369,
  "E1394": 1370,
  "E1395": 1371,
  "E1396": 1372,
  "E1397": 1373,
  "E1398": 1374,
  "E1399": 1375,
  "E1400": 1376,
  "E1401": 1377,
  "E1402": 1378,
  "E1403": 1379,
  "E1404": 1380,
  "E1405": 1381,
  "E1406": 1382,
  "E1407": 1383,
  "E1408": 1384,
  "E1409": 1385,
  "E1410": 1386,
  "E1411": 1387,
  "E1412": 1388,
  "E1413": 1389,
  "E1414": 1390,
  "E1415": 1391,
  "E1416": 1392,
  "E1417": 1393,
  "E1418": 1394,
  "E1419": 1395,
  "E1420": 1396,
  "E1421": 1397,
  "E1422": 1398,
  "E1423": 1399,
  "E1424": 1400,
  "E1425": 1401,
  "E1426": 1402,
  "E1427": 1403,
  "E1428": 1404,
  "E1429": 1405,
  "E1430": 1406,
  "E1431": 1407,
  "E1432": 1408,
  "E1433": 1409,
  "E1434": 1410,
  "E1435": 1411,
  "E1436": 1412,
  "E1437": 1413,
  "E1438": 1414,
  "E1439": 1415,
  "E1440": 1416
}